tree
version=v2
num_class=1
num_tree_per_iteration=1
label_index=0
max_feature_idx=4
objective=binary sigmoid:1
feature_names=smart_1_raw smart_5_raw smart_9_raw smart_194_raw smart_197_raw
feature_infos=[0:145228] [0:59] [7:19697] [15:34] [0:65535]
tree_sizes=2367 2394

Tree=0
num_leaves=30
num_cat=0
split_feature=0 0 2 2 2 4 3 4 0 2 0 2 2 4 2 3 4 2 4 2 2 3 3 2 3 2 0 3 2
split_gain=785.439 110.506 134.478 13.4033 384.212 761.401 933.571 172.948 20.3363 212.591 6.22844 18.4506 216.547 357.15 23.9155 62.5592 145.151 4.82579 34.8593 0.711751 25.5378 5.75204 6.27982 9.73299 4.56231 3.34476 1.77636e-15 8.88178e-16 4.44089e-16
threshold=65602.000000000015 4967.5000000000009 16917.500000000004 15427.500000000002 15515.500000000002 1.0000000180025095e-35 22.500000000000004 13.500000000000002 448.50000000000006 17384.500000000004 1.0000000180025095e-35 18044.500000000004 18122.500000000004 1.5000000000000002 18272.500000000004 23.500000000000004 1.5000000000000002 2787.5000000000005 1.5000000000000002 9717.5000000000018 9645.5000000000018 23.500000000000004 24.500000000000004 9686.5000000000018 25.500000000000004 9686.5000000000018 2880.0000000000005 22.500000000000004 3902.5000000000005
decision_type=2 2 2 2 2 2 2 2 2 2 2 2 2 2 2 2 2 2 2 2 2 2 2 2 2 2 2 2 2
left_child=1 3 -3 17 5 -5 7 -7 10 -10 27 -12 13 -13 15 -14 -17 18 -1 20 28 -22 25 24 -24 -23 -21 -6 -19
right_child=-2 2 -4 4 8 6 -8 -9 9 -11 11 12 14 -15 -16 16 -18 19 -20 26 21 22 23 -25 -26 -27 -28 -29 -30
leaf_value=-8.5128630032897714 -4.5681826570555648 -6.0474377868936067 -8.5128630032897679 -8.5128630032897696 -8.5128630032897714 -8.5128630032897696 -3.455580508116582 -6.0474377868931359 -8.5128630032897696 -6.1648389876738996 -8.5128630032897714 -8.5128630032897696 -8.5128630032897696 -5.5244688015965906 -8.5128630032897714 -8.5128630032897696 -6.1648389876739005 -8.5128630032897714 -8.1119808542821055 -8.5128630032897714 -8.5128630032897696 -8.5128630032897679 -8.2547032947665056 -8.5128630032897696 -8.5128630032897696 -8.2084895197839476 -8.5128630032897696 -8.5128630032897714 -8.5128630032897714
leaf_count=820 25 20 24 201 6820 47 39 20 201 21 3462 49 127 33 1370 34 21 1899 123 40425 132 20 191 196 41 162 116 5979 16259
internal_value=0 -0.187274 111.065 -0.249388 1.40848 79.3068 231.587 72.5946 0.0884653 21.2108 -0.173573 1.90257 8.05277 119.264 2.17689 26.0924 88.6516 -0.755228 4.22869 -0.834296 -0.47842 12.2905 15.1665 10.5205 20.2535 26.0924 -1.0002 -1.0002 -1.0002
internal_count=78877 78852 44 78808 18424 307 106 67 18117 222 17895 5096 1634 82 1552 182 55 60384 943 59441 18900 742 610 428 232 182 40541 12799 18158
shrinkage=1


Tree=1
num_leaves=30
num_cat=0
split_feature=0 1 4 3 4 0 0 3 3 4 0 0 3 0 0 4 4 3 3 3 4 4 0 3 3 4 4 3 3
split_gain=24.9088 42.6486 7.20115 11.8857 6.0517 3.17282 3.10113 2.92215 2.63767 2.54721 7.50346 42.7749 3.64593 3.72338 90.1232 2.62297 43.8177 47.2917 2.26642 2.65598 1.53081 2.0989 1.26485 1.1262 1.08495 0.782242 8.42039 8.65324 27.1828
threshold=4967.5000000000009 2.5000000000000004 1.0000000180025095e-35 29.500000000000004 2.5000000000000004 1.0000000180025095e-35 8.5000000000000018 20.500000000000004 25.500000000000004 4.5000000000000009 448.50000000000006 543.50000000000011 21.500000000000004 5.5000000000000009 4.5000000000000009 138.50000000000003 141.00000000000003 22.500000000000004 22.500000000000004 23.500000000000004 1.5000000000000002 2.5000000000000004 1.0000000180025095e-35 24.500000000000004 22.500000000000004 7.5000000000000009 6.5000000000000009 22.500000000000004 23.500000000000004
decision_type=2 2 2 2 2 2 2 2 2 2 2 2 2 2 2 2 2 2 2 2 2 2 2 2 2 2 2 2 2
left_child=2 -2 -1 8 5 -5 -7 -3 9 10 12 -12 -4 14 18 25 17 -17 -14 22 -21 23 -20 -22 -16 26 -11 -28 -29
right_child=1 7 3 4 -6 6 -8 -9 -10 15 11 -13 13 -15 24 16 -18 -19 19 20 21 -23 -24 -25 -26 -27 27 28 -30
leaf_value=-0.0081311062669600087 0.32994572890096208 0.059578041529884239 -0.010002223314135859 -0.0100020089876819 -0.010002023846581519 0.25965730470149423 -0.010002008987681207 -0.010101797135502211 -0.010003075676184737 -0.010127017084354997 0.53146916112878695 -0.010002008987683138 -0.010002008987683246 -0.010068036888470046 0.5514502120986583 0.93980220166475748 -0.010083072864426288 -0.010002008987682325 0.035336202662245388 -0.01007702319832576 -0.010002008987683006 -0.010002849476993729 -0.010002008987683135 0.051597870437110158 0.44636428676446516 -0.010063892075944303 -0.010005083599020225 0.44519518252892865 -0.010014886929200922
leaf_count=53130 29 20 3463 32 99 129 24 20 5498 1893 26 346 1857 1599 70 31 793 52 1670 1412 181 681 338 366 81 4645 224 72 96
internal_value=0 8.79516 -0.30687 0.517548 13.64 19.6918 22.8646 3.03561 0.379566 0.67383 1.26656 10.3709 0.998953 1.60851 2.22945 -0.128804 2.87738 46.688 1.19717 1.76603 0.394501 1.92569 3.11056 4.03043 49.3482 -0.512438 0.272719 8.68298 17.3367
internal_count=78877 69 78808 25678 284 185 153 40 25394 19896 12090 372 11718 8255 6656 7806 876 83 6505 4648 2640 1228 2008 547 151 6930 2285 392 168
shrinkage=0.01



feature importances:
smart_194_raw=17
smart_197_raw=14
smart_1_raw=13
smart_9_raw=13
smart_5_raw=1

pandas_categorical:[]
